<blk> 0
<sos/eos> 1
<unk> 2
. 3
▁ 4
? 5
, 6
▁그 7
▁거 8
이 9
▁아 10
▁근데 11
도 12
▁안 13
는 14
가 15
▁어 16
을 17
▁뭐 18
에 19
지 20
▁막 21
고 22
▁나 23
은 24
▁한 25
▁그냥 26
▁내가 27
를 28
▁그런 29
▁진짜 30
▁다 31
▁그래서 32
▁이제 33
▁게 34
만 35
어 36
▁거야 37
▁좀 38
▁그거 39
서 40
다 41
▁나는 42
▁때 43
로 44
▁너무 45
야 46
▁잘 47
▁아니 48
대 49
▁많이 50
▁수 51
에서 52
▁또 53
▁같애 54
▁약간 55
▁우리 56
나 57
▁못 58
기 59
▁이 60
▁하고 61
▁내 62
잖아 63
▁되게 64
▁해 65
▁응 66
▁너 67
▁이런 68
▁가 69
▁그렇게 70
면 71
는데 72
▁그게 73
▁하는 74
▁더 75
요 76
▁이렇게 77
리 78
▁할 79
라 80
▁있는 81
▁지금 82
게 83
▁난 84
한 85
하고 86
해 87
▁그때 88
▁있어 89
▁그래 90
▁사 91
으로 92
▁쫌 93
▁나도 94
시 95
▁왜 96
인 97
▁같은 98
▁음 99
▁거기 100
▁1 101
▁2 102
▁그니까 103
니까 104
▁돼 105
일 106
▁그리고 107
거든 108
▁데 109
▁아니야 110
▁하 111
네 112
랑 113
데 114
▁맞아 115
▁번 116
▁오 117
▁엄청 118
▁그럼 119
할 120
▁일 121
다고 122
스 123
▁말 124
구 125
▁주 126
▁건 127
▁같이 128
▁없어 129
가지고 130
사 131
아 132
주 133
하는 134
▁계속 135
▁뭔가 136
▁3 137
라고 138
진 139
자 140
긴 141
▁보 142
▁것도 143
▁어떻게 144
▁그러면 145
▁지 146
▁갈 147
▁걸 148
▁거지 149
들 150
▁있잖아 151
▁딱 152
의 153
▁가서 154
▁있고 155
까지 156
▁이게 157
▁그래도 158
장 159
단 160
▁원래 161
려 162
▁사람 163
년 164
▁얘기 165
▁하나 166
▁두 167
이랑 168
▁살 169
수 170
▁몇 171
▁시 172
▁마 173
▁봐 174
▁정도 175
▁해야 176
▁먹고 177
이야 178
▁야 179
까 180
하 181
▁보고 182
▁원 183
▁생각 184
▁되는 185
▁개 186
면은 187
래 188
던 189
▁있는데 190
▁이거 191
▁자 192
▁해서 193
드 194
▁대 195
니 196
▁했는데 197
▁세 198
▁거의 199
▁걔 200
월 201
▁사람이 202
▁그치 203
▁같은데 204
▁아이 205
트 206
▁돈 207
▁전 208
인데 209
▁일단 210
▁무슨 211
들이 212
▁집 213
치 214
▁날 215
▁하면 216
▁별로 217
더라고 218
▁고 219
▁반 220
▁다른 221
▁자기 222
분 223
해서 224
원 225
▁와 226
러 227
정 228
▁그건 229
▁부 230
▁인제 231
▁학교 232
▁너가 233
▁어떤 234
냐 235
▁했어 236
▁맨날 237
▁솔직히 238
▁시간 239
▁오늘 240
▁줄 241
한테 242
▁어디 243
▁보니까 244
▁거기서 245
▁될 246
▁비 247
다가 248
▁좋은 249
▁않아 250
▁좋아 251
부 252
▁간 253
▁4 254
▁차 255
식 256
비 257
인가 258
▁가는 259
▁하는데 260
▁알 261
▁달 262
▁구 263
▁명 264
▁그걸 265
▁저 266
▁사실 267
▁가고 268
▁우리가 269
▁몰라 270
▁말이야 271
부터 272
으면 273
▁있지 274
▁하지 275
▁본 276
상 277
▁영화 278
신 279
▁바 280
▁그래가지고 281
▁어제 282
▁아니라 283
▁요즘 284
▁애들 285
▁다시 286
▁애 287
▁알바 288
▁공 289
▁수도 290
전 291
동 292
▁이번에 293
▁때문에 294
▁신 295
▁정 296
▁아니면 297
하게 298
우 299
▁5 300
▁제일 301
과 302
거 303
▁완전 304
▁친구 305
보 306
▁여기 307
▁되는데 308
▁정말 309
▁알아 310
▁있을 311
구나 312
▁인 313
▁볼 314
▁걔가 315
▁싶어 316
▁들어 317
▁거는 318
가지구 319
▁것 320
▁모 321
▁갑자기 322
▁없는 323
▁스 324
이나 325
▁건데 326
▁전에 327
더라 328
면서 329
질 330
으니까 331
▁까 332
▁아직 333
▁되지 334
▁소 335
▁갔다 336
▁가지고 337
▁너는 338
▁기 339
겠지 340
워 341
▁그럴 342
했어 343
▁보면 344
▁적 345
▁술 346
▁사람들이 347
▁조 348
▁아예 349
▁연 350
▁바로 351
학년 352
마 353
▁네 354
▁그것도 355
▁입 356
▁그거는 357
▁제 358
▁이케 359
▁말고 360
▁무 361
▁모르겠어 362
▁그러 363
▁되고 364
제 365
▁니가 366
화 367
▁아마 368
▁그러면은 369
▁언제 370
▁중 371
르 372
▁때는 373
▁생각을 374
▁타 375
▁집에 376
▁한번 377
두 378
성 379
▁공부 380
개 381
운 382
▁일본 383
▁혼자 384
만원 385
▁예 386
▁한데 387
▁사람들 388
▁10 389
▁가면 390
▁봤어 391
▁엄마 392
▁유 393
▁상 394
보다 395
▁밥 396
오 397
▁아니고 398
명 399
▁열 400
▁배 401
▁형 402
겠다 403
▁하니까 404
▁여 405
▁니 406
처럼 407
▁방 408
던데 409
▁게임 410
▁뭐지 411
▁얼마 412
▁없 413
▁여행 414
적으로 415
▁애들이 416
음 417
▁물 418
려고 419
밖에 420
여 421
▁왜냐면 422
엔 423
었어 424
차 425
으 426
▁먹을 427
▁나중에 428
▁맞어 429
든 430
▁놀 431
하지 432
▁생각해 433
▁쓰 434
▁나한테 435
▁그서 436
▁않을까 437
걸 438
실 439
▁그러고 440
▁그러니까 441
▁먹 442
▁남 443
0 444
▁금 445
▁먹어 446
▁생각이 447
▁그거를 448
프 449
▁미 450
▁서 451
방 452
▁언니 453
▁싸 454
▁않 455
산 456
거나 457
▁싶은 458
져 459
▁빨리 460
문 461
▁동 462
▁6 463
하면 464
▁뭐야 465
▁되 466
▁피 467
▁과 468
▁만약에 469
▁하면은 470
선 471
▁싫어 472
▁온 473
▁여자 474
미 475
▁많아 476
▁어차피 477
▁뭘 478
▁그렇지 479
린 480
▁해도 481
▁먹는 482
▁큰 483
적인 484
점 485
▁사진 486
매 487
▁운동 488
▁만 489
▁해가지고 490
▁처음 491
내 492
▁힘들 493
생 494
야지 495
소 496
▁시험 497
▁느낌 498
▁성 499
▁들 500
▁보면은 501
▁아냐 502
당 503
▁됐 504
▁따 505
▁분 506
히 507
▁화 508
그 509
천 510
▁군대 511
학 512
했 513
▁자기가 514
세 515
▁얘기를 516
▁있으니까 517
▁있 518
▁파 519
▁써 520
▁엄마가 521
▁그까 522
집 523
▁있으면 524
▁거잖아 525
▁걔는 526
씩 527
▁불 528
라는 529
역 530
티 531
▁만나 532
▁발 533
루 534
▁없고 535
울 536
▁보는 537
▁재밌 538
용 539
다는 540
이라고 541
▁하면서 542
▁참 543
▁학원 544
▁한국 545
▁항상 546
▁나랑 547
회 548
▁치 549
▁외 550
물 551
무 552
위 553
▁우 554
▁20 555
▁노 556
▁다음 557
금 558
간 559
▁된 560
관 561
계 562
▁있다 563
란 564
시간 565
▁기억 566
▁버 567
▁가야 568
타 569
▁장 570
▁알고 571
죠 572
▁옷 573
▁문제 574
▁진 575
였 576
박 577
▁타고 578
▁집에서 579
호 580
▁가지 581
▁보통 582
번 583
였어 584
▁길 585
▁이번 586
▁어쨌든 587
준 588
▁중에 589
▁누구 590
▁봤는데 591
▁산 592
버 593
▁되잖아 594
▁열심히 595
▁영어 596
▁단 597
▁요 598
▁오래 599
겨 600
릴 601
▁나왔 602
▁비싸 603
▁팔 604
▁걸로 605
터 606
모 607
바 608
▁같 609
▁시간이 610
▁머리 611
▁왔 612
▁남자 613
▁돈이 614
해야 615
▁따른 616
▁쪼끔 617
▁들어가 618
었는데 619
▁손 620
▁나온 621
와 622
▁식으로 623
디 624
▁했지 625
업 626
▁실 627
▁눈 628
지는 629
▁양 630
▁올 631
▁되니까 632
▁연락 633
▁뭐라 634
▁동안 635
▁대학 636
▁말을 637
이고 638
색 639
석 640
▁조금 641
▁된다 642
▁나서 643
▁감 644
▁있거든 645
크 646
▁되나 647
▁재 648
▁싶다 649
▁말이 650
▁7 651
▁강 652
이지 653
▁오빠 654
레 655
양 656
▁이상 657
▁8 658
▁내일 659
▁너네 660
기도 661
▁끝나고 662
▁우리는 663
▁노래 664
▁우리나라 665
▁드 666
▁매 667
▁쪽 668
봐 669
이니까 670
달 671
하기 672
급 673
▁크 674
▁회 675
이잖아 676
▁책 677
▁때도 678
▁어느 679
▁보내 680
반 681
▁없지 682
▁했잖아 683
▁준비 684
▁통 685
▁같아 686
▁교 687
▁둘 688
기가 689
▁당 690
▁수업 691
냐고 692
▁걔네 693
조 694
▁핸드폰 695
▁많은 696
▁아까 697
▁싶 698
▁넌 699
▁대해서 700
▁없잖아 701
▁맛있 702
▁너도 703
들은 704
▁하잖아 705
▁삼 706
▁와서 707
▁있었어 708
졌 709
피 710
▁선 711
▁고등학교 712
행 713
▁초 714
▁회사 715
▁나와 716
권 717
▁거고 718
▁괜찮 719
▁순 720
▁누가 721
▁저번에 722
직 723
▁코 724
▁아닌 725
▁전화 726
▁후 727
▁아빠 728
▁요새 729
살 730
▁처음에 731
브 732
▁다음에 733
▁굳이 734
▁짜 735
▁먼저 736
▁갔는데 737
▁봤 738
▁편 739
▁키 740
▁옛날에 741
감 742
▁이러고 743
▁거를 744
▁지금은 745
▁30 746
길 747
▁서울 748
▁돈을 749
▁있었는데 750
이라 751
▁따로 752
이면 753
국 754
▁위 755
▁꼭 756
▁영 757
▁잠 758
공 759
유 760
렸 761
▁얼마나 762
▁수가 763
▁봤을 764
▁으 765
▁12 766
리고 767
체 768
파 769
▁글 770
▁이러면서 771
▁기억이 772
심 773
▁나가 774
▁싶은데 775
중 776
▁쓸 777
갈 778
▁근 779
▁확실히 780
른 781
▁그랬어 782
▁벌 783
▁학 784
▁다르 785
형 786
되 787
▁9 788
▁죽 789
지만 790
복 791
▁나오는 792
드라 793
▁고민 794
▁아닌데 795
▁그런데 796
▁찾아 797
▁갖고 798
▁하더라고 799
연 800
▁맞는 801
에는 802
▁느낌이 803
적 804
▁사고 805
▁나오 806
▁경 807
▁생 808
▁갔 809
▁갔어 810
▁쪼금 811
난 812
▁이미 813
▁다니 814
▁좋아하는 815
▁있어서 816
겠네 817
▁했던 818
▁애가 819
▁같고 820
▁물론 821
▁아니면은 822
▁모르겠는데 823
안 824
▁사는 825
있 826
▁친구가 827
▁저기 828
▁달라 829
▁없는데 830
▁알지 831
▁드라마 832
▁문 833
▁되면 834
▁일이 835
▁붙 836
▁가면은 837
았 838
카 839
발 840
▁음식 841
절 842
▁받아 843
▁속 844
▁약 845
리는 846
날 847
▁일을 848
▁딱히 849
니깐 850
▁복 851
▁혹시 852
▁친구들 853
▁무조건 854
▁했었 855
임 856
하면서 857
▁하루 858
▁쓰는 859
▁커 860
▁이러 861
▁요즘에 862
▁친 863
강 864
▁뭔 865
포 866
된 867
▁결혼 868
▁잡 869
▁힘들어 870
작 871
했는데 872
지고 873
▁토 874
▁홍대 875
▁건가 876
군 877
▁추 878
▁의 879
▁쓰고 880
▁이름 881
셨 882
▁좋아해 883
▁아빠가 884
갖고 885
▁소리 886
▁했 887
▁졸업 888
▁에 889
▁별 890
교 891
▁중국 892
▁가자 893
대로 894
▁넘 895
했던 896
▁목 897
개월 898
▁포 899
드라고 900
▁식 901
기는 902
▁오히려 903
▁그랬는데 904
▁준 905
본 906
▁현 907
▁하기 908
겠어 909
하니까 910
품 911
▁차라리 912
▁그쪽 913
등 914
플 915
▁아침에 916
▁심 917
▁아무 918
쳐 919
▁않았어 920
지도 921
▁카페 922
▁여러 923
▁나이 924
▁들고 925
▁근까 926
▁뭐가 927
스트 928
▁둘이 929
▁해야지 930
▁짐 931
민 932
었거든 933
▁알았어 934
▁먹으면 935
보고 936
▁앞에 937
▁당연히 938
경 939
▁하긴 940
입 941
▁대학교 942
▁갔을 943
▁하다가 944
즈 945
케 946
출 947
▁사람은 948
▁시작 949
보다는 950
▁있었 951
▁거기에 952
▁풀 953
더 954
▁좋지 955
▁뽑 956
▁꺼 957
▁얼굴 958
▁괜찮아 959
▁선생님 960
▁서로 961
▁있다고 962
▁종 963
▁거니까 964
재 965
▁취업 966
▁텐데 967
마다 968
▁번도 969
▁달에 970
▁망 971
셔 972
▁동생 973
▁생각보다 974
▁밖에 975
▁받 976
▁주고 977
백 978
▁깨 979
▁자꾸 980
▁아니지 981
었 982
▁땐 983
어서 984
해가지고 985
▁100 986
▁아닌가 987
▁잘못 988
▁한다 989
▁백 990
쯤 991
▁그렇고 992
▁먹었 993
▁오는 994
▁몸 995
쪽 996
▁욕 997
하다 998
병 999
▁자주 1000
겠 1001
▁호 1002
▁떠 1003
말 1004
▁보여 1005
▁지원 1006
▁예전에 1007
십 1008
통 1009
각 1010
▁새 1011
건 1012
향 1013
먹 1014
▁걍 1015
3 1016
이가 1017
라도 1018
▁딸 1019
▁아무래도 1020
줄 1021
▁언니가 1022
▁딴 1023
▁없다 1024
료 1025
▁다섯 1026
▁없으니까 1027
▁적이 1028
▁얘 1029
▁일단은 1030
▁보이 1031
속 1032
▁부산 1033
▁버스 1034
▁민 1035
▁확 1036
▁설 1037
▁있나 1038
▁아는 1039
었던 1040
▁입고 1041
론 1042
키 1043
▁제가 1044
▁누나 1045
▁만들어 1046
▁없이 1047
▁없어서 1048
▁않나 1049
▁뭐냐 1050
▁평 1051
▁된다고 1052
▁최근에 1053
▁끝나 1054
▁메 1055
▁영상 1056
▁잠깐 1057
▁계 1058
▁찾 1059
▁마음 1060
▁하다 1061
▁사람들은 1062
저 1063
▁아무것도 1064
하잖아 1065
▁절대 1066
▁옆에 1067
▁말하는 1068
▁생활 1069
림 1070
▁천 1071
판 1072
기로 1073
▁많고 1074
▁왔어 1075
▁듣고 1076
▁주는 1077
▁거기는 1078
▁리 1079
▁재수 1080
▁면접 1081
코 1082
▁안에 1083
더니 1084
▁필요 1085
▁않고 1086
▁해주 1087
▁받고 1088
▁그다음에 1089
층 1090
▁재밌어 1091
▁맨 1092
▁허 1093
▁됐어 1094
▁굉장히 1095
종 1096
틀 1097
혀 1098
▁병원 1099
력 1100
▁너랑 1101
시에 1102
▁자체가 1103
▁아무튼 1104
▁부분 1105
▁일찍 1106
▁그날 1107
▁모르겠다 1108
▁점 1109
▁데가 1110
▁같다 1111
▁곳 1112
블 1113
▁중학교 1114
▁한다고 1115
었잖아 1116
▁만났 1117
▁그래가지구 1118
한다 1119
▁좋을 1120
으면은 1121
에도 1122
▁팀 1123
▁훨씬 1124
애 1125
▁들었 1126
▁자리 1127
▁청 1128
▁보러 1129
▁대한 1130
▁살아 1131
이었어 1132
글 1133
▁거기가 1134
▁괜찮은 1135
▁가게 1136
▁살짝 1137
▁가족 1138
▁먹었어 1139
▁같긴 1140
▁사람도 1141
▁축구 1142
▁따라 1143
▁걔도 1144
▁끝 1145
▁특 1146
며 1147
락 1148
▁좋아하 1149
볼 1150
장이 1151
▁어쩔 1152
님 1153
께 1154
▁올해 1155
줘 1156
▁배우 1157
▁하자 1158
하는데 1159
페 1160
▁옛날 1161
▁제주도 1162
▁했다 1163
▁간다 1164
너 1165
▁판 1166
▁가기 1167
▁늦게 1168
투 1169
▁받았 1170
▁애들은 1171
▁가끔 1172
▁그런가 1173
였는데 1174
▁아침 1175
학기 1176
라서 1177
▁얘가 1178
인지 1179
▁있긴 1180
▁저는 1181
증 1182
▁이상한 1183
격 1184
▁크게 1185
약 1186
▁공부를 1187
▁여기서 1188
▁그때는 1189
▁뒤에 1190
주고 1191
에서는 1192
▁없을 1193
▁동네 1194
▁음악 1195
2 1196
1 1197
▁신청 1198
▁했거든 1199
▁없었 1200
토 1201
곤 1202
▁맛 1203
▁봐야 1204
▁놀러 1205
▁물어보 1206
▁넣 1207
▁베 1208
▁받는 1209
▁맛있는 1210
▁쪽으로 1211
라면 1212
▁다닐 1213
▁잔 1214
▁디 1215
▁미국 1216
▁진짜로 1217
▁쉬 1218
▁느 1219
지가 1220
들도 1221
▁사이 1222
▁국 1223
▁있어야 1224
▁일어나 1225
▁저녁 1226
▁투 1227
▁그것 1228
하면은 1229
▁말해 1230
▁15 1231
럽 1232
▁마지막 1233
▁전공 1234
▁레 1235
▁병 1236
갔 1237
▁년 1238
리가 1239
▁어디서 1240
▁힘든 1241
▁하나도 1242
적이 1243
▁카톡 1244
편 1245
▁않았 1246
▁보면서 1247
▁계획 1248
5 1249
▁아직도 1250
▁터 1251
▁왔다 1252
▁누 1253
▁태 1254
▁수능 1255
▁얘기해 1256
▁방학 1257
▁용 1258
▁11 1259
▁시켜 1260
망 1261
▁보기 1262
탕 1263
▁귀 1264
▁카 1265
▁작 1266
▁뜨 1267
▁할머니 1268
주는 1269
▁아프 1270
근 1271
▁걸어 1272
▁취 1273
원이 1274
▁알았 1275
▁유튜브 1276
배 1277
▁학기 1278
▁걸리 1279
▁때부터 1280
▁만들 1281
까진 1282
▁나올 1283
▁들어오 1284
▁탈 1285
▁갔다가 1286
▁경우 1287
▁가장 1288
▁신경 1289
▁그걸로 1290
▁돌아 1291
머 1292
▁다들 1293
▁하게 1294
▁그분 1295
▁좋겠다 1296
▁끼 1297
튼 1298
▁이걸 1299
▁지나 1300
▁없었어 1301
▁이해 1302
▁걱정 1303
▁얘길 1304
▁돌 1305
에다가 1306
▁뒤 1307
▁줘 1308
▁예를 1309
▁빼고 1310
만한 1311
▁50 1312
이다 1313
▁박 1314
▁모든 1315
▁내려 1316
션 1317
영 1318
익 1319
▁나오고 1320
▁울 1321
▁최 1322
▁돼서 1323
노 1324
▁올라가 1325
▁맞다 1326
▁일반 1327
▁했을 1328
▁강아지 1329
▁너한테 1330
▁짜증 1331
▁뭐라고 1332
▁건지 1333
▁아니잖아 1334
▁쳐 1335
▁사회 1336
▁담 1337
▁다니고 1338
▁출 1339
▁찍어 1340
▁연습 1341
▁제대로 1342
▁창 1343
▁입장 1344
▁수영 1345
퍼 1346
▁결국 1347
▁나라 1348
▁생기 1349
▁똑같은 1350
▁거라고 1351
▁체 1352
월에 1353
▁육 1354
▁들어서 1355
초 1356
▁다니는 1357
▁컴퓨터 1358
▁쓴 1359
▁그러는 1360
추 1361
했지 1362
줬 1363
▁동아리 1364
▁것들 1365
▁자격증 1366
들을 1367
▁들었어 1368
▁상태 1369
▁어렵 1370
▁학교에서 1371
왔 1372
놨 1373
팅 1374
떨 1375
▁십 1376
▁거랑 1377
▁언 1378
▁외국 1379
▁겨울 1380
▁얘기하 1381
▁많잖아 1382
▁하지만 1383
▁티 1384
▁좋은데 1385
거리 1386
▁운전 1387
값 1388
▁형이 1389
▁40 1390
▁이건 1391
▁오고 1392
했잖아 1393
▁넘어 1394
▁마시 1395
▁때마다 1396
▁고기 1397
▁교회 1398
▁이래 1399
▁늘 1400
▁뭔지 1401
규 1402
▁변 1403
▁빨 1404
한다고 1405
언 1406
▁말야 1407
▁교수님 1408
졌어 1409
예 1410
이라서 1411
성이 1412
▁긍까 1413
▁오빠가 1414
▁보다 1415
했다 1416
후 1417
억 1418
▁생각하고 1419
▁웃 1420
▁났 1421
▁점심 1422
▁생각하 1423
▁가는데 1424
▁골 1425
▁벌써 1426
S 1427
▁관 1428
▁땜에 1429
▁남았 1430
▁않냐 1431
곡 1432
▁느끼 1433
돼 1434
했을 1435
▁주변에 1436
▁케 1437
▁논 1438
▁할려고 1439
불 1440
▁다녀 1441
류 1442
름 1443
젠 1444
▁꿈 1445
▁봐도 1446
▁친해 1447
▁접 1448
▁얼 1449
▁왜냐면은 1450
▁커피 1451
▁해보 1452
▁들어갔 1453
▁앞 1454
▁건강 1455
▁있다가 1456
족 1457
목 1458
▁빵 1459
▁수학 1460
다니까 1461
▁좋았 1462
되는 1463
▁듣 1464
▁부모님 1465
▁맛있어 1466
▁자고 1467
던가 1468
▁모르는 1469
▁장난 1470
▁내용 1471
▁나름 1472
▁않은 1473
▁문제가 1474
▁되면은 1475
▁싶지 1476
▁잡아 1477
▁챙겨 1478
▁밀 1479
하러 1480
▁그러지 1481
길래 1482
▁위에 1483
▁나쁘지 1484
▁많았 1485
범 1486
런 1487
▁데서 1488
점이 1489
립 1490
▁갔었 1491
여서 1492
이라는 1493
▁힘 1494
▁무서워 1495
▁맛이 1496
▁그렇구나 1497
▁비행기 1498
▁있대 1499
었지 1500
▁밑에 1501
에서도 1502
▁같기도 1503
견 1504
▁이야기 1505
▁지하철 1506
있는 1507
▁광 1508
랐 1509
이었 1510
▁마음이 1511
▁이러는 1512
북 1513
▁그러면서 1514
▁꼬 1515
▁정도로 1516
▁치킨 1517
▁좋겠어 1518
▁인터넷 1519
환 1520
▁학점 1521
움 1522
청 1523
평 1524
▁김 1525
▁초등학교 1526
▁머 1527
▁똑같 1528
▁좋다 1529
한데 1530
▁자체 1531
▁놓고 1532
▁월 1533
▁키우 1534
▁카드 1535
▁어렸을 1536
▁가져 1537
▁때가 1538
▁하거든 1539
▁여섯 1540
▁될지 1541
시는 1542
▁씨 1543
함 1544
▁토요일 1545
▁같애요 1546
▁관심 1547
▁선생님이 1548
▁올리 1549
▁생일 1550
▁며칠 1551
남 1552
설 1553
▁냄새 1554
▁함 1555
▁많지 1556
▁정신 1557
▁일주일 1558
▁시에 1559
▁명이 1560
▁비싼 1561
덕 1562
려면 1563
▁담배 1564
▁먹어야 1565
▁있더라고 1566
▁나와서 1567
량 1568
▁쌤 1569
준다 1570
믄 1571
▁고양이 1572
▁나갔 1573
딩 1574
합 1575
째 1576
▁분위기 1577
▁성적 1578
명이 1579
▁아주 1580
끼 1581
▁어때 1582
▁상관없 1583
▁번째 1584
테 1585
밥 1586
올 1587
짜리 1588
▁휴학 1589
▁중요한 1590
▁그랬잖아 1591
창 1592
였나 1593
▁기간 1594
▁충 1595
표 1596
▁생각은 1597
▁어머니 1598
▁듣는 1599
었다 1600
▁가야지 1601
온 1602
▁우린 1603
▁내려가 1604
▁금요일 1605
▁슬 1606
▁승 1607
▁그래야 1608
▁빠지 1609
▁재밌는 1610
▁경기 1611
▁생각하는 1612
▁악 1613
▁이거는 1614
받 1615
▁오면 1616
▁방송 1617
▁몰 1618
▁주제 1619
▁작년에 1620
▁암튼 1621
▁왔는데 1622
▁가도 1623
학과 1624
▁빠 1625
▁해보고 1626
▁그랬더니 1627
▁부르 1628
▁아저씨 1629
혜 1630
▁교육 1631
▁하더라 1632
잖아요 1633
▁거면 1634
▁혼 1635
▁유럽 1636
▁새로 1637
▁스물 1638
▁맞지 1639
▁토익 1640
▁하루에 1641
▁그래갖고 1642
▁보지 1643
▁받을 1644
▁대충 1645
됐 1646
담 1647
▁대화 1648
▁색깔 1649
▁질 1650
볼까 1651
▁트 1652
▁아파 1653
▁친구랑 1654
▁급 1655
▁있겠지 1656
▁그지 1657
▁차이 1658
▁채 1659
친 1660
▁쪽에 1661
봤 1662
겼 1663
▁아님 1664
▁낫 1665
세요 1666
법 1667
▁간다고 1668
▁술을 1669
▁알아서 1670
▁비슷한 1671
▁있으면은 1672
▁그랬었 1673
탁 1674
▁돌아가 1675
▁법 1676
▁밤 1677
야겠다 1678
▁자신 1679
▁가가지고 1680
외 1681
▁똑같이 1682
▁많은데 1683
존 1684
▁편의점 1685
▁밤에 1686
▁필 1687
이라도 1688
▁에이 1689
▁환 1690
▁나왔어 1691
▁싶어서 1692
시까지 1693
▁생겼 1694
커 1695
▁테 1696
▁이러니까 1697
▁않는 1698
▁선택 1699
▁가격 1700
만큼 1701
▁철 1702
▁직접 1703
▁있냐 1704
▁멀 1705
득 1706
▁몰랐 1707
▁생긴 1708
달라고 1709
보니까 1710
8 1711
▁떨어지 1712
천원 1713
▁좋고 1714
놔 1715
씨 1716
아서 1717
찌 1718
▁총 1719
▁있었던 1720
▁들어가서 1721
▁말한 1722
▁강남 1723
습 1724
때 1725
▁했었는데 1726
▁지내 1727
▁기본 1728
빈 1729
▁와가지고 1730
▁기숙사 1731
▁사람을 1732
정이 1733
▁애기 1734
톡 1735
킹 1736
▁걔랑 1737
축 1738
▁올려 1739
▁만날 1740
▁관리 1741
▁놀고 1742
▁깔 1743
▁호텔 1744
▁미리 1745
▁걔네들 1746
▁번씩 1747
▁이사 1748
하다가 1749
독 1750
▁선물 1751
쯤에 1752
▁상황 1753
D 1754
▁살고 1755
▁답 1756
▁사랑 1757
녀 1758
레이 1759
▁낫지 1760
자마자 1761
태 1762
▁뿌 1763
겠지만 1764
짜 1765
▁워낙 1766
▁앞으로 1767
▁요리 1768
▁피자 1769
착 1770
▁패 1771
꼬 1772
쿠 1773
▁택시 1774
▁이유가 1775
▁중에서 1776
▁된대 1777
▁되겠다 1778
▁나가서 1779
▁경험 1780
▁그렇긴 1781
싱 1782
끼리 1783
▁집이 1784
▁독 1785
▁말도 1786
▁괜히 1787
▁공연 1788
▁먹은 1789
▁있어요 1790
항 1791
▁없으면 1792
▁할까 1793
▁나이가 1794
▁않을 1795
거야 1796
았어 1797
▁먹자 1798
T 1799
줬어 1800
깐 1801
▁애들이랑 1802
▁중간에 1803
링 1804
어가지고 1805
▁모르 1806
까지는 1807
▁극 1808
▁줬 1809
▁지금도 1810
▁했었어 1811
▁인생 1812
▁이름이 1813
▁처음에는 1814
! 1815
▁아무리 1816
▁군 1817
을걸 1818
▁바꾸 1819
▁헤 1820
▁이랬는데 1821
▁미안 1822
필 1823
▁빌 1824
▁연애 1825
▁물어봤 1826
▁그렇다고 1827
▁배워 1828
이래 1829
▁파는 1830
▁약속 1831
▁것만 1832
▁임 1833
▁하시 1834
려서 1835
막 1836
▁학생 1837
▁주에 1838
감이 1839
▁특히 1840
▁먹으러 1841
▁위해서 1842
▁엄마한테 1843
널 1844
▁싼 1845
▁그다음 1846
▁노력 1847
▁애초에 1848
습니다 1849
▁그랬지 1850
냐면 1851
▁중요하 1852
▁사야 1853
▁기억나 1854
▁아버지 1855
▁재밌게 1856
▁연기 1857
▁우리도 1858
르고 1859
▁검 1860
▁전혀 1861
▁작년 1862
▁모아 1863
▁유명한 1864
▁롤 1865
▁바꿔 1866
▁어떡해 1867
▁클 1868
▁예쁘 1869
▁덜 1870
▁넣어 1871
잡 1872
▁만드는 1873
봐야 1874
▁직업 1875
▁나오면 1876
▁알바를 1877
▁올라 1878
▁합 1879
▁만난 1880
▁없다고 1881
▁금방 1882
▁보는데 1883
▁봤지 1884
▁좋겠 1885
▁먹지 1886
▁드는 1887
▁싸우 1888
▁말했 1889
▁넘어가 1890
▁이까 1891
▁점수 1892
▁친한 1893
▁모르지 1894
▁만든 1895
였지 1896
풍 1897
센 1898
▁대신 1899
같이 1900
▁살았 1901
능 1902
▁운동을 1903
▁여름 1904
▁심지어 1905
▁일요일 1906
▁바뀌 1907
▁개인 1908
▁애들도 1909
보단 1910
▁그대로 1911
▁멋있 1912
▁봐서 1913
▁역 1914
▁해봤 1915
활 1916
▁크리스마스 1917
▁데는 1918
▁해가지구 1919
▁꾸 1920
땡 1921
▁칠 1922
▁자기는 1923
▁기분 1924
▁스타일 1925
▁알았는데 1926
▁청소 1927
▁생각도 1928
▁선배 1929
▁있었거든 1930
▁저번 1931
C 1932
▁같애서 1933
▁주말 1934
▁너희 1935
▁밥을 1936
▁하겠지 1937
순 1938
▁처 1939
▁점점 1940
메 1941
악 1942
▁찾아보 1943
▁아니다 1944
▁이쁘 1945
▁만나는 1946
▁사람들도 1947
▁스트레스 1948
▁빠져 1949
▁해외 1950
▁보이는 1951
▁얘기하는 1952
▁넓 1953
▁가보고 1954
▁귀찮 1955
▁이유 1956
▁왕 1957
보면 1958
뿐 1959
셨어 1960
▁같지 1961
▁괜찮을 1962
자고 1963
잉 1964
택 1965
빙 1966
▁암 1967
▁엄마랑 1968
▁인정 1969
▁있어가지고 1970
낼 1971
▁그러다 1972
수가 1973
▁쭉 1974
▁의미 1975
▁팬 1976
▁막상 1977
▁많아서 1978
▁그림 1979
▁설명 1980
▁됐는데 1981
▁그랬던 1982
▁시키 1983
▁가능 1984
▁봤거든 1985
▁재미 1986
랜 1987
시고 1988
▁뻔 1989
침 1990
▁절 1991
▁요즘은 1992
▁물어봐 1993
칠 1994
듯 1995
▁아니니까 1996
잔 1997
▁전문 1998
▁졸 1999
▁그나마 2000
▁정도는 2001
▁작은 2002
꺼 2003
▁많다 2004
▁매일 2005
▁결 2006
술 2007
▁방법 2008
▁주말에 2009
▁경우는 2010
▁60 2011
▁있던 2012
스터 2013
▁엄 2014
▁등 2015
▁나갈 2016
이란 2017
채 2018
▁패딩 2019
▁머리가 2020
▁저녁에 2021
▁까먹 2022
▁빌려 2023
▁라면 2024
▁건물 2025
▁표 2026
▁만나서 2027
▁무섭 2028
▁인스타 2029
이네 2030
▁프로 2031
▁거예요 2032
▁월요일 2033
징 2034
났어 2035
▁이모 2036
▁들어갈 2037
거든요 2038
▁잘해 2039
▁순간 2040
비가 2041
봉 2042
▁얘기가 2043
렌 2044
액 2045
▁가니까 2046
▁인사 2047
▁눈이 2048
▁잡고 2049
▁들어간 2050
▁정해 2051
▁가봤 2052
▁싫은 2053
▁나머지 2054
▁대부분 2055
▁시간에 2056
▁쪼 2057
▁일하는 2058
▁거기도 2059
퇴 2060
▁만나고 2061
▁근처에 2062
치고 2063
▁내고 2064
▁그리구 2065
▁안돼 2066
▁해봐 2067
▁찍고 2068
이었는데 2069
별 2070
▁아무도 2071
들이랑 2072
▁내년 2073
▁짝 2074
▁세상 2075
▁직 2076
▁몸이 2077
자가 2078
킨 2079
기에는 2080
▁했고 2081
츠 2082
▁여자애 2083
▁눈치 2084
▁대박 2085
▁있을까 2086
▁행복 2087
▁거긴 2088
▁날씨 2089
했거든 2090
율 2091
▁했나 2092
▁벌어 2093
슈 2094
끔 2095
▁은데 2096
맘 2097
▁떡볶이 2098
▁맥주 2099
굴 2100
▁먹었는데 2101
▁예약 2102
▁활동 2103
▁문화 2104
M 2105
▁하냐 2106
▁닭 2107
▁올라오 2108
▁동생이 2109
▁새로운 2110
▁있으 2111
▁많으니까 2112
겠다고 2113
▁편하 2114
킬 2115
장님 2116
▁들어가는 2117
냥 2118
▁때까지 2119
▁어쩌 2120
▁쇼핑 2121
▁지짜 2122
▁내년에 2123
▁뛰어 2124
보자 2125
▁편이 2126
들한테 2127
희 2128
▁걸려 2129
▁기사 2130
▁주변 2131
▁생각하면 2132
▁어려운 2133
숙 2134
이었나 2135
▁그렇다 2136
▁가지구 2137
▁이래서 2138
홀 2139
승 2140
▁시작하 2141
▁포기 2142
봤어 2143
▁확인 2144
▁같던데 2145
6 2146
해야지 2147
하시는 2148
▁이쪽 2149
낸 2150
▁괜찮았 2151
▁베트남 2152
듯이 2153
줘야 2154
▁라고 2155
▁원래는 2156
롭 2157
▁책을 2158
책 2159
▁웃긴 2160
▁괜찮은데 2161
▁직장 2162
▁동물 2163
▁그러네 2164
▁하겠다 2165
▁기분이 2166
▁사장님 2167
▁아이폰 2168
▁이따 2169
▁당장 2170
밀 2171
가주구 2172
▁화장 2173
▁A 2174
▁맞춰 2175
▁성격 2176
렸어 2177
▁C 2178
▁정리 2179
▁종류 2180
▁불러 2181
▁관심이 2182
▁싶고 2183
핑 2184
하자 2185
▁공무원 2186
▁이거를 2187
몬 2188
▁갔지 2189
▁나쁜 2190
▁합정 2191
하거나 2192
▁여행을 2193
▁것처럼 2194
▁그거랑 2195
염 2196
▁보자 2197
슨 2198
이면은 2199
7 2200
▁티비 2201
▁몰랐어 2202
▁200 2203
▁바다 2204
▁기대 2205
▁살이 2206
▁정도면 2207
P 2208
▁기회 2209
▁갔잖아 2210
송 2211
▁않지 2212
없 2213
록 2214
콘 2215
▁저도 2216
▁게임을 2217
▁옆 2218
▁미세먼지 2219
벌 2220
▁잘하는 2221
▁작업 2222
▁이해가 2223
▁운 2224
▁귀찮아 2225
흥 2226
▁화장실 2227
▁그러더라고 2228
▁떨어졌 2229
▁탄 2230
빵 2231
▁상황이 2232
봤는데 2233
▁숙 2234
▁경찰 2235
▁칼 2236
▁인천 2237
탄 2238
▁연락을 2239
▁이럴 2240
▁워 2241
따 2242
▁아닐까 2243
▁젤 2244
▁미술 2245
▁실제로 2246
▁싶었는데 2247
▁근처 2248
▁수술 2249
든지 2250
9 2251
▁걔네가 2252
▁사주 2253
▁깜짝 2254
슬 2255
▁있게 2256
▁내용이 2257
▁취직 2258
▁국가 2259
▁다행이 2260
▁저거 2261
처 2262
▁좋게 2263
싸 2264
▁안데 2265
▁모르고 2266
▁요즘에는 2267
▁각 2268
▁새벽 2269
▁필요한 2270
극 2271
▁교수님이 2272
▁있단 2273
들끼리 2274
▁아니었어 2275
▁할인 2276
얼 2277
▁끝났 2278
▁신촌 2279
▁월급 2280
▁짤 2281
▁컴 2282
▁친구들이랑 2283
▁앞에서 2284
▁희 2285
▁괜찮지 2286
▁지역 2287
▁어릴 2288
등급 2289
▁시간을 2290
▁역시 2291
휴 2292
▁느껴 2293
폐 2294
▁들을 2295
▁했으니까 2296
하긴 2297
었나 2298
▁나가는 2299
▁목소리 2300
▁모습 2301
▁적은 2302
▁노트북 2303
▁디자인 2304
▁말은 2305
▁했으면 2306
왕 2307
▁갈까 2308
갖 2309
▁옆에서 2310
▁샀어 2311
▁취미 2312
▁가잖아 2313
돌 2314
▁갔던 2315
▁지금까지 2316
▁보여주 2317
▁좋다고 2318
▁할아버지 2319
줄게 2320
▁짓 2321
▁말하면 2322
맨 2323
▁말씀 2324
람 2325
▁이틀 2326
▁헬스 2327
였던 2328
▁빡 2329
▁뭔데 2330
▁70 2331
▁과목 2332
▁없어가지고 2333
▁얘기하고 2334
▁들어가면 2335
▁써야 2336
누 2337
▁후회 2338
▁엄마는 2339
▁싫다 2340
▁연예인 2341
▁휴 2342
▁나는데 2343
▁라는 2344
▁좋았어 2345
▁찌 2346
▁같다고 2347
▁동기 2348
률 2349
하네 2350
▁평일 2351
▁분들 2352
▁영화를 2353
▁분이 2354
▁거에요 2355
▁피부 2356
▁있다는 2357
▁척 2358
▁쪽이 2359
쓰 2360
▁푸 2361
더라도 2362
▁여름에 2363
▁이후로 2364
▁다리 2365
▁들었는데 2366
▁들어와 2367
▁현실 2368
럼 2369
뜻 2370
▁높은 2371
턴 2372
▁얘네 2373
팔 2374
▁차이가 2375
▁갖다 2376
▁기계 2377
압 2378
▁그양 2379
▁형은 2380
수록 2381
▁봤던 2382
농 2383
▁경우에는 2384
▁있었잖아 2385
끌 2386
▁친구들이 2387
▁쉽지 2388
▁받은 2389
▁하던데 2390
▁않은데 2391
▁되냐 2392
▁수밖에 2393
▁치고 2394
▁색 2395
▁바쁘 2396
▁스무 2397
▁플 2398
▁신발 2399
력이 2400
▁한두 2401
▁옷을 2402
멍 2403
쁠 2404
▁일곱 2405
c 2406
▁뭐였지 2407
켜 2408
▁일부러 2409
▁겨울에 2410
▁결과 2411
▁여덟 2412
▁재밌었 2413
▁걔네는 2414
▁우선 2415
▁요번에 2416
▁추천 2417
▁마시고 2418
▁선수 2419
봤자 2420
있어 2421
▁하여튼 2422
▁언니는 2423
▁얘들 2424
▁그만큼 2425
▁복학 2426
▁웃기 2427
옥 2428
▁부담 2429
▁기준 2430
험 2431
▁솔 2432
▁중이야 2433
▁손님 2434
▁다니면서 2435
났 2436
▁출근 2437
▁직원 2438
윤 2439
▁휴가 2440
▁괜찮다 2441
▁숙소 2442
▁어린 2443
▁도시 2444
▁먼 2445
객 2446
▁배우고 2447
▁노는 2448
▁그러다가 2449
현 2450
▁세계 2451
▁전체 2452
▁발표 2453
▁저희 2454
▁마음에 2455
▁그러는데 2456
으니깐 2457
앤 2458
컵 2459
▁지방 2460
▁시즌 2461
▁있겠다 2462
▁같더라고 2463
▁성격이 2464
▁추워 2465
▁기다리 2466
▁봤다 2467
▁귀엽 2468
련 2469
▁농구 2470
▁이러면 2471
었고 2472
찬 2473
벽 2474
▁비슷하 2475
▁관련 2476
▁재밌었어 2477
▁아파트 2478
생활 2479
시부터 2480
▁돈도 2481
▁문자 2482
▁만화 2483
열 2484
▁들으면 2485
▁식당 2486
▁있지만 2487
▁뒤로 2488
촌 2489
▁알겠어 2490
▁어려워 2491
▁흐 2492
▁재미없 2493
댄 2494
져서 2495
되고 2496
롱 2497
▁학교에 2498
웨 2499
▁일주일에 2500
▁18 2501
가꼬 2502
▁갈려고 2503
▁광고 2504
형이 2505
▁끄치 2506
▁해줬 2507
▁쓰면 2508
▁같아서 2509
s 2510
▁배우는 2511
▁재밌을 2512
▁과제 2513
▁사업 2514
▁반대 2515
였거든 2516
▁있기 2517
▁좋아하고 2518
쉬 2519
삭 2520
베 2521
버려 2522
▁춤 2523
▁경제 2524
다매 2525
▁부분이 2526
▁싶다고 2527
▁다닌 2528
▁맘에 2529
▁훈련 2530
하다고 2531
▁읽어 2532
▁프로그램 2533
텐 2534
▁자유 2535
달라 2536
▁초반 2537
▁도착 2538
▁넣고 2539
▁뽑아 2540
▁쎄 2541
▁맛집 2542
▁아픈 2543
▁아닐 2544
꾸 2545
▁스타 2546
▁정확히 2547
▁시장 2548
▁필요하 2549
▁캐 2550
▁평소에 2551
혈 2552
▁쟤 2553
▁지나가 2554
골 2555
▁대학원 2556
▁털 2557
▁쉽게 2558
▁모르겠 2559
▁서울대 2560
▁연락이 2561
으면서 2562
▁용돈 2563
▁보험 2564
▁합격 2565
▁경영 2566
▁최고 2567
▁입어 2568
하거든 2569
▁끄 2570
▁봄 2571
▁가봤어 2572
▁나보다 2573
▁강의 2574
▁헬스장 2575
쇼 2576
▁원하는 2577
▁왠지 2578
▁말라고 2579
▁외국인 2580
K 2581
▁나쁘 2582
▁얘는 2583
▁나왔는데 2584
▁아줌마 2585
▁안경 2586
▁폭 2587
▁할라고 2588
든데 2589
▁얘기할 2590
▁과외 2591
▁떨어져 2592
▁벗 2593
▁좋아서 2594
▁그러게 2595
▁봤잖아 2596
▁알려주 2597
▁대로 2598
▁상담 2599
▁집중 2600
▁사촌 2601
▁싶었 2602
▁전역 2603
▁여유 2604
▁홍 2605
▁들어왔 2606
▁있었지 2607
▁친구는 2608
▁많을 2609
머니 2610
▁싸게 2611
▁똥 2612
엠 2613
▁끊어 2614
▁심하 2615
빠 2616
▁춥 2617
네요 2618
여행 2619
▁애들한테 2620
▁16 2621
▁돼요 2622
에선 2623
컨 2624
▁그니깐 2625
▁떼 2626
▁사서 2627
▁관계 2628
▁해주는 2629
답 2630
▁여자가 2631
▁삼성 2632
▁하나씩 2633
▁멀리 2634
놈 2635
▁하던 2636
▁교수 2637
년에 2638
▁목요일 2639
춘 2640
님이 2641
▁목표 2642
▁맥 2643
▁의사 2644
▁정돈 2645
▁그것만 2646
▁갈래 2647
▁들은 2648
▁사람한테 2649
▁퍼 2650
▁먹는데 2651
▁돌아다니 2652
든가 2653
▁마셔 2654
▁궁금해 2655
▁가끔씩 2656
▁말할 2657
▁봐봐 2658
▁페이 2659
▁따라서 2660
▁못해 2661
엘 2662
▁뉴스 2663
▁가까운 2664
▁스타일이 2665
▁해줘 2666
▁교통 2667
▁감정 2668
▁좋아하는데 2669
했다고 2670
▁날에 2671
▁계산 2672
▁껴 2673
▁타는 2674
▁당연하지 2675
훈 2676
즐 2677
▁롯데 2678
▁혼자서 2679
헌 2680
▁자전거 2681
▁먹기 2682
▁무서운 2683
▁가자고 2684
연이 2685
▁부모님이 2686
▁나가고 2687
똑 2688
▁일어나서 2689
▁되거든 2690
궁 2691
▁국어 2692
▁오랜만에 2693
▁충격 2694
▁검사 2695
▁맞았 2696
▁편입 2697
▁중간 2698
랜드 2699
겠는데 2700
▁충분히 2701
▁똑같애 2702
▁니네 2703
▁헐 2704
▁언어 2705
▁증 2706
▁오빠는 2707
▁놀아 2708
▁꿀 2709
셋 2710
빛 2711
▁만들고 2712
▁캐릭터 2713
결 2714
▁아깝 2715
▁하라고 2716
▁밖에서 2717
맛 2718
▁학교를 2719
▁검색 2720
▁맞춰서 2721
▁돼가지고 2722
▁오후 2723
▁예쁜 2724
▁모르겠고 2725
▁정보 2726
욕 2727
▁학과 2728
▁맞추 2729
돈 2730
▁번호 2731
더라구 2732
▁행동 2733
▁고생 2734
▁그때부터 2735
▁가깝 2736
▁황 2737
▁300 2738
▁편집 2739
▁그랬거든 2740
▁설날 2741
겁 2742
▁서울에 2743
하더라고 2744
▁누나가 2745
될 2746
▁그러잖아 2747
▁자세 2748
▁추가 2749
▁그땐 2750
▁팔아 2751
▁돌려 2752
▁소주 2753
▁이것도 2754
▁옛날에는 2755
껄 2756
▁없나 2757
▁들면 2758
▁스토리 2759
▁겁나 2760
▁가만히 2761
▁편하게 2762
했네 2763
▁염색 2764
▁끝나면 2765
▁만나면 2766
▁넘게 2767
▁신기하 2768
▁거라서 2769
▁날짜 2770
▁있겠 2771
▁찍었 2772
▁마셨 2773
▁아니냐 2774
드리 2775
▁표현 2776
▁그랬나 2777
었을 2778
좌 2779
▁마지막에 2780
▁오면은 2781
▁클럽 2782
▁나보고 2783
▁걔한테 2784
▁앉아 2785
▁멀어 2786
▁가기로 2787
삐 2788
탑 2789
▁19 2790
▁했더니 2791
▁장학금 2792
▁예전 2793
▁힘들지 2794
▁17 2795
▁실력 2796
▁곳이 2797
▁붙어 2798
키로 2799
▁생겨 2800
놨어 2801
▁인기 2802
% 2803
▁붙었 2804
알 2805
▁기술 2806
삼 2807
▁25 2808
▁가방 2809
탈 2810
▁짱 2811
취 2812
▁놀았 2813
▁해줄 2814
▁다이어트 2815
▁만들었 2816
먼 2817
▁남자들 2818
▁하셨 2819
▁B 2820
픽 2821
▁땅 2822
▁80 2823
▁이따가 2824
▁걱정이 2825
▁이십 2826
▁쌤이 2827
논 2828
▁계약 2829
닥 2830
▁기업 2831
가주고 2832
▁않았나 2833
▁일어났 2834
▁큰일 2835
▁거짓말 2836
바닥 2837
프로 2838
G 2839
▁아직까지 2840
▁콘서트 2841
▁카메라 2842
▁미래 2843
닝 2844
쌀 2845
▁데리고 2846
▁비용 2847
릿 2848
▁영화관 2849
▁연극 2850
▁봉 2851
▁나오잖아 2852
▁만큼 2853
▁말했잖아 2854
▁받았어 2855
▁조심 2856
▁죽을 2857
▁쉬는 2858
▁개인적으로 2859
▁싶으면 2860
▁있던데 2861
였잖아 2862
▁도서관 2863
▁튀 2864
▁분명히 2865
섬 2866
겠냐 2867
▁보다가 2868
▁얼굴이 2869
다니 2870
▁되겠지 2871
▁먹어봤 2872
▁파티 2873
힌 2874
▁송 2875
례 2876
▁스키 2877
▁재미가 2878
▁좋긴 2879
▁아이까 2880
▁아쉽 2881
▁배운 2882
꽂 2883
▁생각나 2884
▁했다고 2885
라니까 2886
▁그랬다 2887
▁일본어 2888
영이 2889
▁있었고 2890
팩 2891
▁가격이 2892
I 2893
▁쓰레기 2894
넷 2895
▁난리 2896
▁수요일 2897
클 2898
▁만약 2899
짝 2900
▁글쎄 2901
▁인간 2902
▁프리 2903
▁사용 2904
▁했대 2905
▁불편하 2906
▁어디로 2907
▁신고 2908
▁싶긴 2909
▁성공 2910
▁사람들한테 2911
▁공간 2912
▁오래됐 2913
이어서 2914
▁심해 2915
령 2916
▁능력 2917
▁시골 2918
▁독일 2919
▁곧 2920
스크 2921
었으니까 2922
▁무료 2923
▁모르니까 2924
▁됐지 2925
▁자식 2926
▁해결 2927
▁위험 2928
▁헤어지 2929
▁나오지 2930
육 2931
▁낳 2932
4 2933
▁것보다 2934
▁구경 2935
▁빠르 2936
▁전자 2937
▁배가 2938
▁것들이 2939
▁최저 2940
▁영국 2941
▁처음부터 2942
▁소개 2943
▁14 2944
▁어플 2945
▁하겠 2946
▁줘야 2947
▁받으면 2948
룸 2949
▁한다는 2950
캠 2951
▁전부 2952
▁넷플릭스 2953
▁빠졌 2954
▁사귀 2955
▁떡 2956
▁일정 2957
호선 2958
패 2959
▁준비를 2960
▁남자가 2961
▁모르겠지만 2962
▁갑 2963
▁보네 2964
이에요 2965
▁웃겨 2966
▁됐다 2967
▁질문 2968
▁꽃 2969
▁핫 2970
괴 2971
▁이것저것 2972
폴 2973
▁최대한 2974
▁남아 2975
▁입시 2976
여가지고 2977
▁결정 2978
합니다 2979
▁새벽에 2980
▁일하고 2981
▁본인 2982
▁힘들었 2983
웃 2984
▁봐야지 2985
▁먹으 2986
▁길게 2987
▁풀어 2988
▁스키장 2989
땠 2990
▁필요가 2991
▁이래가지고 2992
▁한국에서 2993
둔 2994
맥 2995
▁남은 2996
▁화요일 2997
갑 2998
▁중국어 2999
▁쏘 3000
▁전날 3001
▁닫 3002
▁정시 3003
▁해주고 3004
▁메뉴 3005
▁녹 3006
첨 3007
▁화가 3008
▁돈으로 3009
우니까 3010
m 3011
▁경력 3012
▁단어 3013
t 3014
▁말라 3015
하진 3016
▁아니지만 3017
▁뭐냐면 3018
버린 3019
▁빡세 3020
▁500 3021
▁않잖아 3022
현이 3023
▁이용 3024
▁남자애 3025
▁찬 3026
▁시급 3027
할까 3028
▁서른 3029
▁촬영 3030
▁되더라고 3031
▁계란 3032
▁바지 3033
▁완 3034
▁술집 3035
▁환경 3036
▁받아야 3037
▁출발 3038
렁 3039
▁상상 3040
▁네이버 3041
▁문과 3042
▁치면 3043
▁쉬고 3044
▁끝까지 3045
▁웹툰 3046
▁읽었 3047
▁느낀 3048
▁없대 3049
▁몰르 3050
▁시대 3051
▁폰 3052
▁효 3053
▁주문 3054
딱 3055
▁이과 3056
▁아빠한테 3057
▁근육 3058
▁라인 3059
▁배울 3060
▁해봤어 3061
▁야구 3062
▁그중에 3063
▁행사 3064
▁13 3065
▁싹 3066
쌍 3067
▁피아노 3068
▁티켓 3069
▁아빠는 3070
▁모자 3071
▁편한 3072
▁불안 3073
▁호주 3074
▁효과 3075
▁도와 3076
▁망했 3077
검 3078
▁방금 3079
하신 3080
쩌 3081
▁갔거든 3082
▁소리야 3083
▁걸렸 3084
▁계시 3085
▁여성 3086
▁셋이 3087
▁웬만하면 3088
▁왔잖아 3089
▁틀어 3090
줬는데 3091
엇 3092
▁자연 3093
▁모여 3094
▁아니었 3095
▁완전히 3096
▁되겠네 3097
R 3098
▁쪽에서 3099
▁작가 3100
▁유명하 3101
▁싫어하는 3102
▁졸업식 3103
봐야겠다 3104
▁항공 3105
학교 3106
몽 3107
▁궁금하 3108
▁배고파 3109
▁TV 3110
▁침대 3111
▁끼고 3112
▁김치 3113
▁이미지 3114
▁야간 3115
▁있었다 3116
▁연결 3117
,000 3118
쟁 3119
▁좋아하지 3120
떠 3121
▁이러면은 3122
▁계절 3123
▁높아 3124
▁쉬운 3125
▁앉아서 3126
▁덴 3127
소리 3128
▁남편 3129
▁해본 3130
▁주인공 3131
납 3132
▁모르는데 3133
▁알아보 3134
▁교양 3135
▁체력 3136
팀 3137
시쯤 3138
▁꼐속 3139
협 3140
▁한참 3141
▁될까 3142
▁전화를 3143
▁사람들이랑 3144
▁유투브 3145
썰 3146
▁대구 3147
했나 3148
▁생겼어 3149
으러 3150
꼴 3151
▁위치 3152
▁쓰지 3153
변 3154
섯 3155
▁모르겠네 3156
▁노래방 3157
것 3158
▁받아서 3159
▁돌리 3160
▁맞나 3161
▁이쁜 3162
▁죽어 3163
▁24 3164
▁녹음 3165
찐 3166
▁대체 3167
▁말해서 3168
▁과정 3169
▁일케 3170
도록 3171
▁어딜 3172
▁없거든 3173
▁쉽 3174
▁완벽 3175
느 3176
▁오사카 3177
▁아빠랑 3178
▁많았어 3179
하냐 3180
▁신기하다 3181
▁렌즈 3182
▁브랜드 3183
▁연말 3184
턱 3185
▁특별 3186
▁대학생 3187
셀 3188
▁근무 3189
▁둘이서 3190
▁무시 3191
▁아이디 3192
▁공부하고 3193
▁유학 3194
▁나오는데 3195
▁포장 3196
엉 3197
▁듣기 3198
져가지고 3199
▁들어야 3200
▁허리 3201
▁들어가고 3202
▁그쪽으로 3203
▁해갖고 3204
▁배그 3205
틴 3206
스타 3207
▁선생님들 3208
▁오전 3209
▁스카이캐슬 3210
▁군인 3211
▁PC 3212
▁없네 3213
F 3214
같 3215
▁좋아해서 3216
▁경쟁 3217
▁되긴 3218
▁여자애들 3219
▁않았냐 3220
▁한국인 3221
낙 3222
▁스스로 3223
▁알잖아 3224
뼈 3225
▁봤었 3226
▁얘긴 3227
▁모임 3228
낭 3229
섭 3230
휘 3231
B 3232
앙 3233
끄 3234
뜨 3235
톤 3236
쩍 3237
칸 3238
켓 3239
큐 3240
혹 3241
깜 3242
탐 3243
닌 3244
컬 3245
냉 3246
새 3247
콜 3248
델 3249
또 3250
긍 3251
겸 3252
꽁 3253
둘 3254
럭 3255
랄 3256
측 3257
광 3258
쿨 3259
써 3260
펴 3261
빤 3262
핸 3263
암 3264
얀 3265
응 3266
잖 3267
릇 3268
렀 3269
겹 3270
랩 3271
컷 3272
갠 3273
끈 3274
죽 3275
L 3276
몰 3277
덤 3278
슴 3279
샤 3280
둥 3281
O 3282
a 3283
철 3284
밑 3285
흡 3286
픈 3287
충 3288
힐 3289
씹 3290
뚝 3291
찔 3292
풀 3293
갚 3294
댔 3295
혁 3296
늘 3297
b 3298
띠 3299
찜 3300
벼 3301
뽀 3302
홈 3303
X 3304
흘 3305
덩 3306
퀴 3307
놀 3308
팝 3309
겉 3310
릭 3311
칙 3312
눌 3313
템 3314
귀 3315
닦 3316
묶 3317
뉴 3318
짠 3319
빅 3320
딜 3321
묘 3322
꾼 3323
곱 3324
벤 3325
텔 3326
콩 3327
묵 3328
E 3329
혼 3330
캡 3331
p 3332
샘 3333
웬 3334
븐 3335
닭 3336
둬 3337
잇 3338
n 3339
댕 3340
곰 3341
짐 3342
빨 3343
A 3344
땀 3345
손 3346
흑 3347
찰 3348
잘 3349
펜 3350
뜬 3351
렉 3352
k 3353
황 3354
춰 3355
밖 3356
렛 3357
숭 3358
짓 3359
멘 3360
닐 3361
밍 3362
촉 3363
o 3364
긋 3365
칭 3366
념 3367
쩐 3368
J 3369
벨 3370
효 3371
g 3372
캐 3373
웅 3374
틱 3375
옷 3376
랍 3377
쪘 3378
쵸 3379
푸 3380
떡 3381
냅 3382
썸 3383
확 3384
닿 3385
쌤 3386
엄 3387
죄 3388
털 3389
랭 3390
껌 3391
귤 3392
e 3393
완 3394
샵 3395
척 3396
접 3397
뷰 3398
귄 3399
갓 3400
굽 3401
램 3402
김 3403
뺄 3404
욱 3405
캔 3406
V 3407
멈 3408
빡 3409
슷 3410
룹 3411
뇌 3412
덥 3413
허 3414
껍 3415
듬 3416
팍 3417
뮤 3418
쥐 3419
흠 3420
폼 3421
솔 3422
톱 3423
맹 3424
썩 3425
잠 3426
딘 3427
r 3428
맵 3429
핀 3430
i 3431
콤 3432
맙 3433
뱅 3434
덜 3435
윗 3436
엑 3437
폰 3438
뜩 3439
찝 3440
뺀 3441
끗 3442
넨 3443
챙 3444
믹 3445
균 3446
붓 3447
쭈 3448
잼 3449
꽃 3450
떼 3451
뒀 3452
쭐 3453
텀 3454
덮 3455
룩 3456
릉 3457
쇠 3458
짬 3459
렴 3460
엽 3461
낄 3462
d 3463
쌩 3464
쪄 3465
뻐 3466
겐 3467
뻥 3468
헬 3469
뻤 3470
펌 3471
쾌 3472
뤄 3473
꼼 3474
껴 3475
핵 3476
밤 3477
줌 3478
닉 3479
팡 3480
듀 3481
략 3482
폭 3483
눈 3484
끓 3485
텍 3486
뱃 3487
셜 3488
룰 3489
윙 3490
앗 3491
궈 3492
엥 3493
U 3494
뿔 3495
뻔 3496
꼽 3497
윈 3498
롤 3499
흰 3500
쉐 3501
멜 3502
봇 3503
푼 3504
튜 3505
댁 3506
앴 3507
v 3508
쿼 3509
탱 3510
빌 3511
듣 3512
갱 3513
빔 3514
퉁 3515
둑 3516
빽 3517
썬 3518
홍 3519
특 3520
헛 3521
탓 3522
몸 3523
빗 3524
벅 3525
l 3526
싶 3527
쎈 3528
꼰 3529
깃 3530
깡 3531
륵 3532
큼 3533
즉 3534
쥬 3535
밴 3536
몇 3537
곳 3538
씬 3539
밭 3540
혐 3541
햄 3542
샌 3543
껏 3544
샷 3545
햇 3546
탠 3547
굿 3548
낀 3549
H 3550
핏 3551
꿀 3552
뜰 3553
펑 3554
뀔 3555
맻 3556
녕 3557
깥 3558
껀 3559
앵 3560
뢰 3561
뱀 3562
덴 3563
뉘 3564
쩜 3565
랙 3566
틈 3567
쏟 3568
냄 3569
뎅 3570
쇄 3571
칩 3572
띵 3573
참 3574
넥 3575
못 3576
푹 3577
땜 3578
졸 3579
붙 3580
깔 3581
랫 3582
퀘 3583
냠 3584
멸 3585
훅 3586
쓸 3587
귈 3588
횟 3589
냬 3590
숲 3591
룬 3592
젓 3593
쩔 3594
칼 3595
뇨 3596
댓 3597
팽 3598
숏 3599
뽕 3600
굔 3601
즘 3602
u 3603
쉰 3604
넣 3605
짱 3606
렬 3607
얄 3608
슐 3609
츄 3610
젤 3611
횡 3612
Y 3613
땅 3614
f 3615
옹 3616
똥 3617
넘 3618
딴 3619
쑥 3620
옵 3621
x 3622
므 3623
뻘 3624
깄 3625
즌 3626
콕 3627
갤 3628
옴 3629
꽈 3630
찡 3631
젖 3632
괌 3633
틸 3634
첩 3635
밸 3636
춤 3637
왤 3638
똘 3639
꿔 3640
갸 3641
챔 3642
칫 3643
튀 3644
얘 3645
녜 3646
쁨 3647
큰 3648
첼 3649
섰 3650
탭 3651
킥 3652
y 3653
랗 3654
펀 3655
펐 3656
쭉 3657
솜 3658
앨 3659
룡 3660
벙 3661
훌 3662
앞 3663
곽 3664
퓨 3665
쓱 3666
욘 3667
렵 3668
돔 3669
팟 3670
럴 3671
닷 3672
겄 3673
텝 3674
팬 3675
렷 3676
딸 3677
찹 3678
텅 3679
귓 3680
깅 3681
총 3682
툴 3683
욜 3684
뛸 3685
벳 3686
짖 3687
얌 3688
겟 3689
퀸 3690
흐 3691
뭐 3692
힙 3693
퍽 3694
않 3695
댈 3696
왓 3697
눕 3698
걱 3699
됨 3700
갇 3701
숍 3702
셰 3703
깨 3704
뻑 3705
j 3706
텨 3707
썹 3708
팸 3709
잎 3710
쯔 3711
퐁 3712
깍 3713
뭇 3714
쌔 3715
삽 3716
셈 3717
씀 3718
읍 3719
콧 3720
획 3721
눅 3722
뒤 3723
h 3724
쬐 3725
풋 3726
슥 3727
왠 3728
렙 3729
덧 3730
럿 3731
릏 3732
샹 3733
쭝 3734
흙 3735
괄 3736
늑 3737
즙 3738
짭 3739
롯 3740
륙 3741
삿 3742
킷 3743
봄 3744
쿡 3745
캉 3746
쁘 3747
톨 3748
둡 3749
엣 3750
쎄 3751
멧 3752
왁 3753
펭 3754
끝 3755
녁 3756
덟 3757
줏 3758
낑 3759
륨 3760
짚 3761
펄 3762
헤 3763
떤 3764
겜 3765
짼 3766
붐 3767
싯 3768
쉽 3769
멀 3770
W 3771
돗 3772
팥 3773
최 3774
웰 3775
꿈 3776
닫 3777
렐 3778
륜 3779
쫑 3780
뿌 3781
윽 3782
Q 3783
갯 3784
랴 3785
헨 3786
캘 3787
싹 3788
껜 3789
렘 3790
펠 3791
깝 3792
킵 3793
헝 3794
볍 3795
깬 3796
씽 3797
뚤 3798
젯 3799
뎌 3800
왈 3801
꾹 3802
컴 3803
셉 3804
엿 3805
곈 3806
꿍 3807
룻 3808
횐 3809
팜 3810
챠 3811
솥 3812
깁 3813
뜸 3814
잌 3815
첸 3816
컥 3817
벡 3818
펙 3819
줍 3820
쭘 3821
핬 3822
멕 3823
꼭 3824
짤 3825
넬 3826
캄 3827
쪼 3828
쩡 3829
큘 3830
륭 3831
엌 3832
쟀 3833
윌 3834
깰 3835
삥 3836
싼 3837
롬 3838
맸 3839
쏭 3840
헐 3841
돕 3842
슛 3843
랠 3844
밋 3845
숯 3846
킴 3847
겔 3848
읏 3849
땐 3850
낌 3851
잭 3852
넌 3853
쏘 3854
w 3855
뺨 3856
펍 3857
숫 3858
꽝 3859
뗄 3860
삔 3861
캣 3862
쨍 3863
텼 3864
맴 3865
웜 3866
앰 3867
젝 3868
탬 3869
셌 3870
켄 3871
둠 3872
씸 3873
쿤 3874
잰 3875
츤 3876
쟈 3877
촛 3878
챌 3879
쨈 3880
폿 3881
밲 3882
툰 3883
뽁 3884
둣 3885
떵 3886
옇 3887
힘 3888
썽 3889
좀 3890
휠 3891
춧 3892
녹 3893
굘 3894
릅 3895
떳 3896
퀄 3897
눔 3898
뎃 3899
룐 3900
젬 3901
칵 3902
훗 3903
찾 3904
- 3905
뎀 3906
맷 3907
쉼 3908
슉 3909
쎌 3910
냔 3911
맬 3912
샾 3913
옆 3914
쓴 3915
딥 3916
봔 3917
챈 3918
햐 3919
헹 3920
꺄 3921
췌 3922
늠 3923
톰 3924
튠 3925
핼 3926
꿉 3927
웩 3928
쟤 3929
촬 3930
샛 3931
얍 3932
굼 3933
왜 3934
놉 3935
똔 3936
몹 3937
빳 3938
훼 3939
옐 3940
딧 3941
댐 3942
켈 3943
텁 3944
겅 3945
냑 3946
닛 3947
뎁 3948
듦 3949
룽 3950
믈 3951
얏 3952
튈 3953
딕 3954
잴 3955
: 3956
깻 3957
떄 3958
랏 3959
웁 3960
팎 3961
끕 3962
넹 3963
볕 3964
샥 3965
젼 3966
샬 3967
냇 3968
벗 3969
셧 3970
쩝 3971
덱 3972
땔 3973
뵐 3974
쨋 3975
휜 3976
쁜 3977
쩨 3978
딛 3979
읜 3980
츰 3981
켔 3982
낳 3983
쨰 3984
뇽 3985
뵌 3986
슁 3987
옌 3988
잿 3989
뽑 3990
핫 3991
띤 3992
q 3993
넴 3994
롸 3995
탤 3996
햅 3997
튿 3998
곧 3999
Z 4000
곌 4001
귿 4002
늄 4003
숀 4004
촐 4005
큭 4006
갰 4007
뗬 4008
숴 4009
콰 4010
캅 4011
캇 4012
횔 4013
늉 4014
낫 4015
쫌 4016
쳔 4017
깟 4018
덨 4019
렝 4020
롹 4021
뼘 4022
욤 4023
읔 4024
쳇 4025
켠 4026
콱 4027
큔 4028
넵 4029
뚠 4030
넝 4031
걔 4032
춥 4033
겡 4034
끅 4035
룔 4036
썅 4037
씰 4038
챗 4039
쿱 4040
뿍 4041
얠 4042
쯩 4043
푤 4044
힝 4045
셍 4046
헀 4047
밌 4048
쿄 4049
펨 4050
궂 4051
꽥 4052
뉸 4053
뤼 4054
엡 4055
잽 4056
켸 4057
핌 4058
힉 4059
쌘 4060
헴 4061
넓 4062
굣 4063
땁 4064
퓰 4065
z 4066
굥 4067
꽌 4068
뉠 4069
랒 4070
먀 4071
삠 4072
셤 4073
쉈 4074
쌨 4075
얬 4076
옙 4077
젱 4078
쨀 4079
숩 4080
휸 4081
뎄 4082
낏 4083
녈 4084
뇸 4085
땍 4086
떈 4087
뚸 4088
뛌 4089
뤠 4090
봥 4091
샨 4092
쒸 4093
욧 4094
줜 4095
짔 4096
짯 4097
쯘 4098
켤 4099
탉 4100
폔 4101
혠 4102
맀 4103
맜 4104
퀀 4105
큽 4106
돠 4107
뭔 4108
읐 4109
휀 4110
땃 4111
겝 4112
꺅 4113
꼇 4114
냘 4115
놘 4116
댜 4117
덷 4118
맽 4119
멏 4120
뫠 4121
뭠 4122
믐 4123
밨 4124
뱁 4125
뱌 4126
볏 4127
뵤 4128
뽝 4129
뾱 4130
삯 4131
셩 4132
솨 4133
쎅 4134
쎔 4135
쏵 4136
웟 4137
웡 4138
좍 4139
죵 4140
쨉 4141
쩄 4142
쭙 4143
챂 4144
췰 4145
칬 4146
퀼 4147
픗 4148
헙 4149
힛 4150
껸 4151
뿟 4152
쒀 4153
쳥 4154
빝 4155
껨 4156
걍 4157
됴 4158
뷴 4159
뷸 4160
갼 4161
꼄 4162
낢 4163
냡 4164
뉩 4165
늗 4166
됙 4167
떱 4168
랟 4169
랮 4170
릈 4171
묜 4172
뭑 4173
뭬 4174
믕 4175
볌 4176
봈 4177
빘 4178
쁩 4179
솝 4180
쏸 4181
얐 4182
엤 4183
옫 4184
왬 4185
욍 4186
잍 4187
잧 4188
쟝 4189
졍 4190
좐 4191
쥘 4192
쥰 4193
짆 4194
쩧 4195
쩬 4196
쫏 4197
쭁 4198
쵝 4199
츈 4200
츨 4201
츳 4202
켁 4203
콴 4204
틍 4205
틑 4206
픕 4207
픙 4208
핟 4209
햘 4210
헜 4211
흄 4212
흣 4213
싷 4214
샅 4215
뭘 4216
괏 4217
낋 4218
녓 4219
떙 4220
쥑 4221
쭗 4222
퍈 4223
퓩 4224
눓 4225
맫 4226
씉 4227
& 4228
갗 4229
갹 4230
걈 4231
걉 4232
걋 4233
걤 4234
걧 4235
겓 4236
겻 4237
괍 4238
굑 4239
궝 4240
귬 4241
귯 4242
긃 4243
긔 4244
깞 4245
깸 4246
꺌 4247
꺤 4248
껒 4249
껵 4250
꽜 4251
꽨 4252
꽷 4253
꿑 4254
꿘 4255
꿜 4256
뀨 4257
뀰 4258
낟 4259
냣 4260
놏 4261
놧 4262
뇬 4263
뇰 4264
뉼 4265
늡 4266
닜 4267
닪 4268
닲 4269
닸 4270
댇 4271
뎡 4272
돚 4273
됀 4274
됄 4275
뒴 4276
듶 4277
듸 4278
딫 4279
딿 4280
땝 4281
땬 4282
땽 4283
떌 4284
뗌 4285
똡 4286
똣 4287
뙈 4288
뚬 4289
뛘 4290
뜌 4291
뜷 4292
뜹 4293
뜽 4294
럐 4295
럤 4296
렿 4297
뢉 4298
뢍 4299
뢴 4300
룃 4301
뤃 4302
뤤 4303
맿 4304
먁 4305
먕 4306
먙 4307
먺 4308
몁 4309
몪 4310
묀 4311
묙 4312
뭰 4313
믁 4314
믾 4315
밚 4316
밷 4317
뱍 4318
뱡 4319
벘 4320
벛 4321
벝 4322
벰 4323
벱 4324
벵 4325
볻 4326
봘 4327
봠 4328
봡 4329
봣 4330
붇 4331
붜 4332
뷘 4333
뷜 4334
뷥 4335
븅 4336
빱 4337
빶 4338
빾 4339
뺘 4340
뺸 4341
뼉 4342
뼜 4343
뽄 4344
뿝 4345
쀨 4346
쁸 4347
삧 4348
삵 4349
샄 4350
샆 4351
셕 4352
셥 4353
쇤 4354
쉅 4355
슦 4356
싧 4357
싰 4358
싻 4359
쌧 4360
썃 4361
쎙 4362
쎠 4363
쎤 4364
쎼 4365
쏩 4366
쏱 4367
쐴 4368
쑬 4369
쒔 4370
쒹 4371
쓍 4372
씃 4373
씄 4374
앏 4375
앜 4376
앟 4377
앺 4378
얋 4379
얖 4380
얫 4381
얾 4382
엏 4383
엩 4384
엷 4385
옂 4386
옘 4387
옯 4388
옼 4389
왐 4390
왝 4391
왱 4392
욌 4393
웝 4394
웸 4395
윘 4396
윜 4397
읓 4398
읖 4399
읠 4400
읭 4401
읺 4402
잕 4403
잛 4404
쟬 4405
젋 4406
젔 4407
젭 4408
젰 4409
졀 4410
졉 4411
졔 4412
좇 4413
좔 4414
좜 4415
죈 4416
죤 4417
줐 4418
줠 4419
쥣 4420
쥼 4421
짦 4422
쨔 4423
쨩 4424
쩟 4425
쩻 4426
쪈 4427
쪗 4428
쪙 4429
쪠 4430
쬠 4431
쮜 4432
쯕 4433
쯪 4434
찠 4435
챃 4436
챚 4437
챤 4438
첬 4439
쳉 4440
쵤 4441
춴 4442
췍 4443
췔 4444
췬 4445
칧 4446
캍 4447
캎 4448
캑 4449
캭 4450
컁 4451
컾 4452
켑 4453
켯 4454
쾡 4455
쿈 4456
쿌 4457
큄 4458
큇 4459
큡 4460
큿 4461
탙 4462
텋 4463
톺 4464
퇼 4465
툐 4466
툿 4467
퉈 4468
튁 4469
튤 4470
틉 4471
팄 4472
팤 4473
퍄 4474
퐅 4475
푱 4476
푿 4477
풉 4478
풰 4479
픅 4480
핧 4481
핱 4482
햔 4483
햬 4484
헵 4485
혬 4486
홤 4487
홰 4488
횃 4489
횠 4490
횩 4491
횻 4492
훕 4493
훜 4494
훝 4495
휨 4496
휭 4497
휼 4498
녘 4499
쉪 4500
앖 4501
줋 4502
쫬 4503
괞 4504
닻 4505
덯 4506
뗏 4507
똫 4508
먄 4509
뵜 4510
뿕 4511
짇 4512
혤 4513
흝 4514
헸 4515
햑 4516
푀 4517
퐉 4518
큣 4519
퀏 4520
칟 4521
촙 4522
찦 4523
찟 4524
옜 4525
옉 4526
얉 4527
쒯 4528
쑐 4529
썻 4530
쌕 4531
솎 4532
삻 4533
봽 4534
벋 4535
뮴 4536
맇 4537
륑 4538
띔 4539
듈 4540
됫 4541
됑 4542
댤 4543
닯 4544
눟 4545
눗 4546
넚 4547
꾿 4548
꼳 4549
겊 4550
퐈 4551
팹 4552
틔 4553
퇸 4554
텟 4555
탰 4556
찧 4557
쬬 4558
쥔 4559
줴 4560
좃 4561
읃 4562
왯 4563
옭 4564
씅 4565
쑹 4566
슾 4567
쉣 4568
셸 4569
뻰 4570
밎 4571
뭡 4572
뭍 4573
묭 4574
멎 4575
뙤 4576
떔 4577
늰 4578
뀜 4579
꽹 4580
꽐 4581
곘 4582
뫼 4583
훙 4584
튬 4585
퉜 4586
쿰 4587
켕 4588
칡 4589
죗 4590
쏼 4591
쌂 4592
셴 4593
뽜 4594
뻠 4595
띌 4596
띈 4597
떽 4598
떰 4599
늣 4600
놥 4601
넒 4602
갉 4603
퉤 4604
퀭 4605
켐 4606
췻 4607
챡 4608
읗 4609
읒 4610
앎 4611
씼 4612
쑨 4613
쐐 4614
뱄 4615
뭥 4616
멨 4617
땟 4618
귐 4619
겋 4620
롄 4621
횰 4622
펩 4623
쩠 4624
앝 4625
쓕 4626
썜 4627
삣 4628
빻 4629
몀 4630
떫 4631
덫 4632
괭 4633
캤 4634
쮸 4635
윅 4636
쌜 4637
쌉 4638
슌 4639
쉿 4640
쇳 4641
뼌 4642
뺌 4643
밈 4644
룟 4645
뜀 4646
넋 4647
꾜 4648
읎 4649
땋 4650
꿩 4651
꼿 4652
곯 4653
폄 4654
뉜 4655
휑 4656
퓸 4657
튄 4658
쭌 4659
뿡 4660
뻬 4661
끍 4662
짊 4663
렜 4664
훤 4665
홧 4666
푯 4667
팼 4668
탯 4669
짢 4670
읊 4671
뭄 4672
놋 4673
촤 4674
쐬 4675
혓 4676
팻 4677
팰 4678
킁 4679
쌋 4680
쉑 4681
빢 4682
묽 4683
뎠 4684
늪 4685
쑈 4686
볐 4687
및 4688
롷 4689
곪 4690
텄 4691
쫒 4692
윳 4693
쉭 4694
쇽 4695
댑 4696
꺽 4697
넙 4698
윰 4699
웍 4700
앳 4701
멩 4702
휩 4703
틋 4704
콸 4705
슘 4706
멱 4707
띨 4708
뒨 4709
꿰 4710
긌 4711
콥 4712
띃 4713
윷 4714
옅 4715
좆 4716
헥 4717
첵 4718
숄 4719
똠 4720
궤 4721
곗 4722
캬 4723
챕 4724
쟨 4725
멓 4726
챘 4727
쯧 4728
짹 4729
잦 4730
몄 4731
궜 4732
짙 4733
뗘 4734
쏜 4735
맏 4736
듭 4737
뿅 4738
빰 4739
딤 4740
걜 4741
싣 4742
섣 4743
밧 4744
낵 4745
낱 4746
꾀 4747
갬 4748
쫘 4749
뗀 4750
쎘 4751
숑 4752
궐 4753
툼 4754
쉘 4755
깽 4756
촥 4757
솟 4758
뼛 4759
끙 4760
퀵 4761
봬 4762
꺠 4763
쐈 4764
찻 4765
닳 4766
긱 4767
곶 4768
푠 4769
랖 4770
죙 4771
뵀 4772
썪 4773
걀 4774
흩 4775
얕 4776
휙 4777
쥴 4778
낡 4779
곁 4780
꿇 4781
띡 4782
헉 4783
촘 4784
뽂 4785
뮌 4786
삑 4787
밉 4788
됬 4789
꿋 4790
홋 4791
끽 4792
훑 4793
캥 4794
쫀 4795
뽈 4796
뵙 4797
빕 4798
뗐 4799
뽐 4800
눴 4801
뻣 4802
핥 4803
앚 4804
갭 4805
얽 4806
핍 4807
쑤 4808
텃 4809
앓 4810
쾅 4811
씁 4812
괘 4813
섀 4814
튕 4815
쌰 4816
몫 4817
갛 4818
뿜 4819
샜 4820
뾰 4821
뒹 4822
뮬 4823
컹 4824
뛴 4825
쩰 4826
뤘 4827
슝 4828
잣 4829
삘 4830
딲 4831
붉 4832
껐 4833
뵈 4834
쏴 4835
쏙 4836
봅 4837
숟 4838
닙 4839
펫 4840
얗 4841
픔 4842
넜 4843
됩 4844
늫 4845
얜 4846
굵 4847
샴 4848
뻗 4849
엮 4850
깠 4851
옳 4852
쭤 4853
꺾 4854
훠 4855
씌 4856
벚 4857
늬 4858
맑 4859
껑 4860
넛 4861
숱 4862
펼 4863
맺 4864
폈 4865
쿵 4866
얹 4867
뱉 4868
팁 4869
뭣 4870
굶 4871
짰 4872
깼 4873
쏠 4874
찼 4875
융 4876
훔 4877
흉 4878
섹 4879
맣 4880
툭 4881
빚 4882
뺑 4883
빴 4884
엎 4885
뭉 4886
멤 4887
딪 4888
낯 4889
넉 4890
췄 4891
엊 4892
쌈 4893
쫍 4894
돋 4895
밟 4896
쉴 4897
쌌 4898
긁 4899
띄 4900
찢 4901
늙 4902
좁 4903
앱 4904
뺏 4905
쫓 4906
헷 4907
쫙 4908
샐 4909
릎 4910
꽉 4911
붕 4912
겪 4913
쫄 4914
뀐 4915
땄 4916
뷔 4917
뜯 4918
낚 4919
뺐 4920
왼 4921
얇 4922
잊 4923
팠 4924
혔 4925
닮 4926
뚱 4927
뚜 4928
꼐 4929
떴 4930
깎 4931
컸 4932
묻 4933
밝 4934
꿨 4935
섞 4936
뒷 4937
딨 4938
걷 4939
잃 4940
N 4941
홉 4942
삶 4943
깊 4944
웹 4945
켰 4946
씻 4947
걘 4948
뚫 4949
얻 4950
숨 4951
흔 4952
눠 4953
탔 4954
옮 4955
젊 4956
뀌 4957
맡 4958
쌓 4959
잤 4960
믿 4961
꽤 4962
짧 4963
멋 4964
쳤 4965
볶 4966
낮 4967
꼈 4968
녔 4969
훨 4970
뛰 4971
굉 4972
첫 4973
냈 4974
썼 4975
앉 4976
높 4977
끊 4978
샀 4979
굳 4980
늦 4981
읽 4982
빼 4983
쨌 4984
웠 4985
옛 4986
놓 4987
찍 4988
싫 4989
괜 4990
떻 4991
찮 4992
랬 4993
맞 4994
좋 4995
많 4996
꿎 4997
렇 4998
밞 4999
